const unsigned char model[] = {
  0x1c, 0x00, 0x00, 0x00, 0x54, 0x46, 0x4c, 0x33, 0x14, 0x00, 0x20, 0x00,
  0x1c, 0x00, 0x18, 0x00, 0x14, 0x00, 0x10, 0x00, 0x0c, 0x00, 0x00, 0x00,
  0x08, 0x00, 0x04, 0x00, 0x14, 0x00, 0x00, 0x00, 0x1c, 0x00, 0x00, 0x00,
  0x98, 0x00, 0x00, 0x00, 0xf0, 0x00, 0x00, 0x00, 0x60, 0x18, 0x00, 0x00,
  0x70, 0x18, 0x00, 0x00, 0xcc, 0x1c, 0x00, 0x00, 0x03, 0x00, 0x00, 0x00,
  0x01, 0x00, 0x00, 0x00, 0x10, 0x00, 0x00, 0x00, 0x00, 0x00, 0x0a, 0x00,
  0x10, 0x00, 0x0c, 0x00, 0x08, 0x00, 0x04, 0x00, 0x0a, 0x00, 0x00, 0x00,
  0x0c, 0x00, 0x00, 0x00, 0x1c, 0x00, 0x00, 0x00, 0x3c, 0x00, 0x00, 0x00,
  0x0f, 0x00, 0x00, 0x00, 0x73, 0x65, 0x72, 0x76, 0x69, 0x6e, 0x67, 0x5f,
  0x64, 0x65, 0x66, 0x61, 0x75, 0x6c, 0x74, 0x00, 0x01, 0x00, 0x00, 0x00,
  0x04, 0x00, 0x00, 0x00, 0x90, 0xff, 0xff, 0xff, 0x08, 0x00, 0x00, 0x00,
  0x04, 0x00, 0x00, 0x00, 0x08, 0x00, 0x00, 0x00, 0x6f, 0x75, 0x74, 0x70,
  0x75, 0x74, 0x5f, 0x30, 0x00, 0x00, 0x00, 0x00, 0x01, 0x00, 0x00, 0x00,
  0x04, 0x00, 0x00, 0x00, 0x86, 0xe7, 0xff, 0xff, 0x04, 0x00, 0x00, 0x00,
  0x0c, 0x00, 0x00, 0x00, 0x6b, 0x65, 0x72, 0x61, 0x73, 0x5f, 0x74, 0x65,
  0x6e, 0x73, 0x6f, 0x72, 0x00, 0x00, 0x00, 0x00, 0x02, 0x00, 0x00, 0x00,
  0x34, 0x00, 0x00, 0x00, 0x04, 0x00, 0x00, 0x00, 0xdc, 0xff, 0xff, 0xff,
  0x0b, 0x00, 0x00, 0x00, 0x04, 0x00, 0x00, 0x00, 0x13, 0x00, 0x00, 0x00,
  0x43, 0x4f, 0x4e, 0x56, 0x45, 0x52, 0x53, 0x49, 0x4f, 0x4e, 0x5f, 0x4d,
  0x45, 0x54, 0x41, 0x44, 0x41, 0x54, 0x41, 0x00, 0x08, 0x00, 0x0c, 0x00,
  0x08, 0x00, 0x04, 0x00, 0x08, 0x00, 0x00, 0x00, 0x0a, 0x00, 0x00, 0x00,
  0x04, 0x00, 0x00, 0x00, 0x13, 0x00, 0x00, 0x00, 0x6d, 0x69, 0x6e, 0x5f,
  0x72, 0x75, 0x6e, 0x74, 0x69, 0x6d, 0x65, 0x5f, 0x76, 0x65, 0x72, 0x73,
  0x69, 0x6f, 0x6e, 0x00, 0x0c, 0x00, 0x00, 0x00, 0x6c, 0x17, 0x00, 0x00,
  0x64, 0x17, 0x00, 0x00, 0x4c, 0x17, 0x00, 0x00, 0x2c, 0x17, 0x00, 0x00,
  0x14, 0x17, 0x00, 0x00, 0xb4, 0x00, 0x00, 0x00, 0xac, 0x00, 0x00, 0x00,
  0xa4, 0x00, 0x00, 0x00, 0x9c, 0x00, 0x00, 0x00, 0x94, 0x00, 0x00, 0x00,
  0x74, 0x00, 0x00, 0x00, 0x04, 0x00, 0x00, 0x00, 0x32, 0xe8, 0xff, 0xff,
  0x04, 0x00, 0x00, 0x00, 0x60, 0x00, 0x00, 0x00, 0x10, 0x00, 0x00, 0x00,
  0x00, 0x00, 0x00, 0x00, 0x08, 0x00, 0x0e, 0x00, 0x08, 0x00, 0x04, 0x00,
  0x08, 0x00, 0x00, 0x00, 0x10, 0x00, 0x00, 0x00, 0x24, 0x00, 0x00, 0x00,
  0x00, 0x00, 0x06, 0x00, 0x08, 0x00, 0x04, 0x00, 0x06, 0x00, 0x00, 0x00,
  0x04, 0x00, 0x00, 0x00, 0x00, 0x00, 0x00, 0x00, 0x0c, 0x00, 0x18, 0x00,
  0x14, 0x00, 0x10, 0x00, 0x0c, 0x00, 0x04, 0x00, 0x0c, 0x00, 0x00, 0x00,
  0x87, 0x57, 0x59, 0x1a, 0xc3, 0x51, 0x39, 0xfa, 0x02, 0x00, 0x00, 0x00,
  0x02, 0x00, 0x00, 0x00, 0x04, 0x00, 0x00, 0x00, 0x06, 0x00, 0x00, 0x00,
  0x32, 0x2e, 0x31, 0x38, 0x2e, 0x30, 0x00, 0x00, 0x9e, 0xe8, 0xff, 0xff,
  0x04, 0x00, 0x00, 0x00, 0x10, 0x00, 0x00, 0x00, 0x31, 0x2e, 0x35, 0x2e,
  0x30, 0x00, 0x00, 0x00, 0x00, 0x00, 0x00, 0x00, 0x00, 0x00, 0x00, 0x00,
  0x0c, 0xe5, 0xff, 0xff, 0x10, 0xe5, 0xff, 0xff, 0x14, 0xe5, 0xff, 0xff,
  0x18, 0xe5, 0xff, 0xff, 0xca, 0xe8, 0xff, 0xff, 0x04, 0x00, 0x00, 0x00,
  0x50, 0x16, 0x00, 0x00, 0xf4, 0x0b, 0xb0, 0xbd, 0xe4, 0xd5, 0x73, 0x3d,
  0x20, 0xb3, 0x1b, 0x3c, 0x9e, 0x9b, 0xa3, 0xbd, 0x2e, 0x20, 0x8b, 0x3d,
  0xce, 0x62, 0xf0, 0xbd, 0xb6, 0x5d, 0xe3, 0x3d, 0xa8, 0xe5, 0xca, 0x3d,
  0x8c, 0x24, 0xbe, 0x3d, 0xfc, 0x24, 0x97, 0xbc, 0x18, 0x09, 0x20, 0x3d,
  0xe0, 0x90, 0xae, 0xbc, 0x3a, 0xd9, 0xb9, 0x3d, 0xbc, 0x4f, 0xc6, 0xbd,
  0x06, 0x9b, 0xde, 0xbd, 0x4e, 0x14, 0x88, 0x3d, 0xac, 0xc9, 0x9a, 0x3d,
  0xdf, 0x92, 0xca, 0xbd, 0xf4, 0x4b, 0x3a, 0x3d, 0xb2, 0x6f, 0xd4, 0x3d,
  0x30, 0x53, 0xbe, 0xbb, 0x4c, 0xb6, 0x86, 0xbc, 0x40, 0xc3, 0x63, 0xbb,
  0x80, 0x0b, 0x24, 0xbb, 0x5e, 0x8b, 0x01, 0xbe, 0x4c, 0xa7, 0xc3, 0x3d,
  0xa8, 0x6c, 0xd5, 0x3d, 0x2c, 0xaa, 0x4d, 0xbd, 0x68, 0xc0, 0x8f, 0xbd,
  0x58, 0xc5, 0xe6, 0x3d, 0x22, 0xb5, 0x95, 0x3d, 0x20, 0xb4, 0x3c, 0xbd,
  0xec, 0x5d, 0x91, 0x3d, 0x7a, 0x30, 0x2f, 0xbd, 0xe0, 0x71, 0x49, 0x3c,
  0x98, 0x49, 0xd5, 0x3d, 0xe0, 0xcb, 0xf2, 0x3b, 0x10, 0x81, 0x4c, 0x3c,
  0x6e, 0x3c, 0xdb, 0x3d, 0xb6, 0x0e, 0xc6, 0x3d, 0x30, 0x3f, 0x2c, 0xbc,
  0x14, 0x5f, 0x0c, 0xbd, 0x36, 0xb7, 0x00, 0xbe, 0x68, 0x87, 0x2e, 0x3d,
  0x88, 0x68, 0xac, 0xbd, 0x26, 0x3c, 0xb4, 0x3d, 0xcc, 0x87, 0x7c, 0x3d,
  0x36, 0x07, 0x92, 0x3d, 0xc4, 0xaf, 0x7b, 0xbd, 0x40, 0x59, 0x0f, 0x3d,
  0x26, 0x88, 0x00, 0xbe, 0x38, 0xf4, 0x99, 0x3c, 0x50, 0x28, 0x82, 0x3d,
  0xa8, 0x62, 0x67, 0xbd, 0x92, 0x57, 0xa1, 0xbd, 0x88, 0xbb, 0xca, 0xbc,
  0xca, 0x5f, 0x70, 0xbd, 0x1c, 0x8a, 0x27, 0x3d, 0x6b, 0x14, 0xa5, 0xbd,
  0x30, 0x6d, 0x97, 0x3c, 0xa8, 0x07, 0xcb, 0x3c, 0xf0, 0x8e, 0xe0, 0xbb,
  0x3a, 0xc5, 0xf2, 0x3d, 0x70, 0xa8, 0xea, 0x3c, 0x90, 0x48, 0xc2, 0xbc,
  0xe0, 0x7e, 0x61, 0xbc, 0x1c, 0xc7, 0x4c, 0x3d, 0x38, 0xa0, 0x30, 0x3d,
  0xec, 0xb5, 0xce, 0xbd, 0x80, 0x0a, 0x4c, 0x3b, 0xf5, 0x94, 0xbb, 0xbd,
  0xac, 0x69, 0x24, 0x3d, 0xfe, 0x2c, 0x91, 0x3d, 0xc0, 0xf7, 0x2d, 0xbb,
  0x1c, 0x09, 0x7e, 0x3d, 0x8a, 0xac, 0xef, 0x3d, 0xb8, 0xe0, 0x50, 0x3d,
  0x18, 0x3d, 0x20, 0xbc, 0xae, 0xd4, 0xc1, 0xbd, 0x78, 0x35, 0xec, 0x3c,
  0xbc, 0x0c, 0x03, 0x3d, 0x76, 0x6e, 0xac, 0xbd, 0xc0, 0x36, 0xa7, 0x3b,
  0xc0, 0x70, 0xa3, 0x3c, 0x00, 0x35, 0x16, 0xbc, 0x42, 0x41, 0xb4, 0xbd,
  0x54, 0xca, 0xfd, 0xbc, 0xea, 0xaa, 0x78, 0xbd, 0xc0, 0x30, 0x7d, 0xbd,
  0x46, 0xa7, 0xca, 0x3d, 0xf0, 0x65, 0x2b, 0x3c, 0xc0, 0xfe, 0xdf, 0x3d,
  0xc6, 0xb0, 0xf9, 0x3d, 0x17, 0x2a, 0x83, 0xbd, 0x18, 0x14, 0x22, 0x3d,
  0x9a, 0x8e, 0x9c, 0x3d, 0x58, 0x39, 0x61, 0x3d, 0x30, 0x2c, 0x63, 0x3c,
  0x3e, 0x58, 0xc1, 0x3d, 0xf8, 0x3a, 0x89, 0x3c, 0x90, 0xe9, 0x1c, 0xbc,
  0x68, 0xe2, 0x5b, 0x3d, 0xa0, 0x74, 0xb5, 0x3b, 0xea, 0xec, 0xbc, 0xbd,
  0x44, 0x19, 0xac, 0x3d, 0x76, 0xf0, 0x02, 0xbe, 0x48, 0xc8, 0x2f, 0x3d,
  0x48, 0x2c, 0x6e, 0x3d, 0x00, 0x27, 0xc3, 0x3d, 0xb4, 0x44, 0x1a, 0xbd,
  0xf4, 0xc1, 0x65, 0xbd, 0x74, 0xb8, 0xf3, 0x3d, 0x1e, 0xf2, 0x8e, 0x3d,
  0x96, 0x06, 0xf2, 0xbd, 0x3f, 0xce, 0xaf, 0xbd, 0xca, 0xc5, 0x9c, 0x3d,
  0x5c, 0xf1, 0x92, 0x3d, 0xf5, 0xd6, 0x03, 0x3e, 0x2b, 0x47, 0xe4, 0xbd,
  0x00, 0x9f, 0x28, 0x3a, 0xe8, 0x86, 0x22, 0xbc, 0x84, 0xfd, 0x23, 0x3d,
  0x14, 0xa3, 0xe9, 0x3d, 0x1a, 0x81, 0x89, 0x3d, 0x0c, 0x2c, 0xf3, 0xbc,
  0xc4, 0x33, 0x50, 0xbd, 0x08, 0xbd, 0xc3, 0xbd, 0x80, 0x28, 0xf0, 0xbd,
  0xc9, 0xb3, 0xfd, 0xbd, 0x08, 0x5d, 0x52, 0x3d, 0xcc, 0x49, 0x6c, 0xbd,
  0x62, 0xdb, 0xa3, 0xbd, 0x3c, 0x04, 0xf7, 0xbd, 0x00, 0x12, 0xe1, 0x3a,
  0x32, 0xec, 0x18, 0xbd, 0xaa, 0x37, 0xe8, 0x3d, 0x6c, 0xef, 0xf3, 0xbc,
  0xa4, 0xb1, 0xae, 0xbd, 0x50, 0x2b, 0x03, 0xbe, 0x90, 0xe1, 0xec, 0x3d,
  0x28, 0x74, 0x5f, 0x3d, 0x58, 0x27, 0x6c, 0x3d, 0xb4, 0xee, 0xaf, 0x3d,
  0xed, 0x56, 0x9d, 0xbd, 0x88, 0xd8, 0xee, 0x3d, 0x2c, 0x14, 0x5d, 0x3d,
  0x38, 0x9a, 0x15, 0x3d, 0x70, 0xb4, 0xde, 0x3d, 0xe0, 0xa2, 0xd3, 0xbd,
  0x81, 0x4b, 0xd8, 0xbd, 0x92, 0xce, 0x86, 0x3d, 0xd8, 0x93, 0x07, 0x3d,
  0xe1, 0xe0, 0xf6, 0xbd, 0xe1, 0x4d, 0xe6, 0xbd, 0x20, 0xb6, 0x92, 0x3b,
  0xe3, 0x92, 0xce, 0xbd, 0x78, 0x2f, 0xab, 0x3d, 0xc6, 0x1d, 0xa0, 0x3d,
  0x30, 0x5f, 0xd2, 0xbc, 0x67, 0x9e, 0x03, 0x3e, 0xc2, 0x14, 0xaa, 0x3d,
  0xb8, 0x7c, 0x9d, 0x3d, 0x60, 0xe3, 0xd0, 0xbd, 0x62, 0x6a, 0x7e, 0xbd,
  0x19, 0x0c, 0xac, 0xbd, 0x74, 0xb4, 0x3e, 0x3d, 0x4c, 0x65, 0x03, 0xbe,
  0xc0, 0x3e, 0xae, 0x3b, 0x98, 0x58, 0xd9, 0x3d, 0x34, 0xcb, 0x4d, 0x3d,
  0x00, 0x97, 0x01, 0x3a, 0xfc, 0x56, 0x34, 0xbd, 0x72, 0x17, 0xe2, 0xbd,
  0x40, 0x62, 0x69, 0x3c, 0x78, 0x19, 0xbc, 0xbd, 0xa9, 0x28, 0x91, 0xbd,
  0xd0, 0xa3, 0xdf, 0xbb, 0xff, 0xdd, 0xc5, 0xbd, 0xf6, 0x03, 0xbd, 0x3d,
  0xf8, 0x84, 0xf4, 0x3d, 0xe8, 0xf3, 0xdd, 0x3c, 0x60, 0xcf, 0x9f, 0x3d,
  0x70, 0xfd, 0xff, 0xbd, 0x2c, 0x62, 0x5e, 0xbd, 0x1e, 0xaf, 0x51, 0xbd,
  0x05, 0x0e, 0x88, 0xbd, 0x74, 0x11, 0x2a, 0x3d, 0x66, 0x58, 0xc4, 0x3d,
  0x9c, 0x4c, 0x45, 0x3d, 0xc4, 0xdf, 0xcd, 0x3d, 0x38, 0x1c, 0x6c, 0x3d,
  0xa0, 0xf4, 0x1f, 0xbc, 0x32, 0x4b, 0xae, 0x3d, 0x36, 0x29, 0x92, 0xbd,
  0x18, 0x5a, 0x51, 0xbd, 0x66, 0x1b, 0xc7, 0x3d, 0xfe, 0x45, 0x33, 0xbd,
  0xd8, 0xd3, 0xf2, 0x3c, 0x64, 0x86, 0x9b, 0xbd, 0x2a, 0xdf, 0x9e, 0x3d,
  0x90, 0x6e, 0xf8, 0xbb, 0x0a, 0xe6, 0xee, 0x3d, 0x10, 0xb5, 0x6e, 0x3d,
  0xde, 0xa2, 0x97, 0x3d, 0xb0, 0x51, 0x8d, 0x3d, 0xe4, 0x54, 0xe6, 0xbd,
  0x98, 0xe6, 0x4d, 0x3d, 0x6e, 0xf7, 0x99, 0xbd, 0x90, 0xa4, 0x83, 0xbd,
  0x44, 0x70, 0xc4, 0x3d, 0x38, 0x7c, 0x61, 0x3d, 0x20, 0x65, 0x7e, 0x3d,
  0x40, 0xda, 0xff, 0x3c, 0x60, 0x72, 0x4c, 0xbd, 0x78, 0x41, 0xe0, 0x3c,
  0xc4, 0x6c, 0x44, 0x3d, 0x5c, 0x52, 0x6b, 0xbd, 0x40, 0xa0, 0xaa, 0xbd,
  0xbe, 0xd0, 0xae, 0xbd, 0x3e, 0x96, 0x2a, 0xbd, 0xac, 0xd4, 0xa1, 0xbd,
  0x14, 0x45, 0xaf, 0x3d, 0x8a, 0x55, 0xaa, 0x3d, 0x60, 0xd7, 0xea, 0xbc,
  0x70, 0x88, 0x53, 0x3c, 0x08, 0x15, 0x3e, 0xbc, 0x7c, 0xd1, 0x2b, 0x3d,
  0x28, 0xe0, 0x34, 0x3d, 0x80, 0x16, 0xf0, 0x3d, 0x08, 0x09, 0xb7, 0x3d,
  0x98, 0x4e, 0xc8, 0x3c, 0x60, 0xcc, 0xba, 0x3d, 0x5e, 0x6c, 0xee, 0x3d,
  0xe0, 0x17, 0x33, 0x3d, 0xf4, 0x5f, 0x07, 0x3d, 0xbc, 0x69, 0x2a, 0x3d,
  0x5e, 0x37, 0xfd, 0x3d, 0x00, 0xba, 0xec, 0x3c, 0x70, 0x3d, 0x61, 0x3d,
  0x48, 0x14, 0xf7, 0x3c, 0x29, 0x34, 0xde, 0xbd, 0x50, 0xdb, 0xe9, 0xbb,
  0xf3, 0x18, 0xae, 0xbd, 0x12, 0x0e, 0xeb, 0x3d, 0x90, 0x27, 0x23, 0x3c,
  0xe8, 0x6c, 0xd9, 0x3c, 0xb6, 0x58, 0x63, 0xbd, 0xe0, 0x07, 0x6c, 0xbc,
  0xf0, 0x8c, 0x3e, 0x3c, 0x80, 0x4e, 0x8b, 0x3b, 0xc0, 0x6d, 0x56, 0x3b,
  0x1d, 0x80, 0x80, 0xbd, 0x45, 0xfa, 0xe8, 0xbd, 0x42, 0xd7, 0xc9, 0xbd,
  0x14, 0xe6, 0x18, 0x3d, 0xf8, 0xe8, 0x92, 0x3d, 0xac, 0x41, 0x13, 0x3d,
  0x58, 0x99, 0x32, 0x3d, 0x6a, 0x3c, 0x20, 0xbd, 0xd0, 0x2e, 0xe8, 0x3c,
  0x8c, 0x17, 0x00, 0x3d, 0x6e, 0x16, 0xdb, 0x3d, 0x80, 0xb0, 0x0d, 0x3b,
  0x20, 0x72, 0x37, 0x3c, 0x70, 0x3e, 0x99, 0x3c, 0xf0, 0xcc, 0xba, 0x3d,
  0xe4, 0xe9, 0x45, 0x3d, 0x32, 0x5b, 0x94, 0x3d, 0x00, 0x33, 0x62, 0x3a,
  0x24, 0x33, 0x63, 0x3d, 0xd0, 0x95, 0xc4, 0x3c, 0xe3, 0x16, 0xcf, 0xbd,
  0xfa, 0x54, 0xa6, 0x3d, 0x49, 0x7a, 0x01, 0x3e, 0xde, 0xce, 0x6b, 0xbd,
  0x88, 0xb9, 0x0f, 0x3d, 0x15, 0x5f, 0xd3, 0xbd, 0x57, 0x64, 0x02, 0xbe,
  0xa7, 0xa4, 0xdc, 0xbd, 0xc0, 0xdc, 0xa0, 0x3c, 0xea, 0x0c, 0x55, 0xbd,
  0x1c, 0xd2, 0x26, 0x3d, 0x24, 0xa5, 0x86, 0x3d, 0x35, 0x18, 0x81, 0xbd,
  0xd0, 0xc4, 0x2b, 0x3d, 0x7c, 0xa6, 0xc6, 0xbd, 0x24, 0x2a, 0xe3, 0xbd,
  0x00, 0x4e, 0xa4, 0xbc, 0x36, 0x8a, 0x9e, 0x3d, 0xb3, 0xca, 0xa2, 0xbd,
  0x60, 0x8c, 0xb9, 0xbd, 0xc0, 0x43, 0x85, 0xbb, 0x82, 0x7d, 0xf9, 0x3d,
  0x14, 0x63, 0x9e, 0x3d, 0xbc, 0x9d, 0xe8, 0x3d, 0x9d, 0xd6, 0xb4, 0xbd,
  0x8a, 0xf6, 0x9b, 0xbd, 0xc2, 0x20, 0x1f, 0xbd, 0xe7, 0x16, 0xe0, 0xbd,
  0xaa, 0x75, 0xaf, 0x3d, 0xe0, 0x3b, 0x9e, 0x3b, 0xda, 0xef, 0x94, 0x3d,
  0x56, 0xe8, 0xe0, 0xbd, 0x58, 0xee, 0xd9, 0xbc, 0x96, 0xf2, 0xf9, 0x3d,
  0x10, 0x77, 0x2e, 0xbd, 0xb6, 0x50, 0xd5, 0x3d, 0xa8, 0xb1, 0xcf, 0xbc,
  0x40, 0xee, 0x5f, 0x3b, 0x30, 0xdd, 0xc8, 0xbd, 0xe4, 0x51, 0x44, 0xbd,
  0x34, 0x9c, 0xea, 0xbc, 0xfa, 0x0d, 0xae, 0x3d, 0xb8, 0x55, 0x09, 0x3d,
  0x48, 0x91, 0xff, 0x3c, 0x98, 0xc2, 0xcb, 0xbc, 0x82, 0xf3, 0xc0, 0xbd,
  0x60, 0x22, 0x5f, 0x3c, 0xb4, 0x3a, 0xd2, 0x3d, 0x9e, 0xb0, 0x8f, 0xbd,
  0x60, 0x2c, 0x57, 0x3c, 0x44, 0x71, 0xe3, 0xbc, 0x42, 0xce, 0x19, 0xbd,
  0x68, 0x77, 0x81, 0x3c, 0xeb, 0xb9, 0x84, 0xbd, 0xfe, 0x99, 0x2c, 0xbd,
  0xf8, 0x56, 0x75, 0xbc, 0x6c, 0xb6, 0x0d, 0xbd, 0xc0, 0x7c, 0x53, 0xbd,
  0x04, 0x1a, 0xc7, 0xbd, 0x23, 0xd2, 0xbd, 0xbd, 0x20, 0xd6, 0x80, 0x3c,
  0xa2, 0x27, 0xf1, 0xbd, 0x38, 0x55, 0x25, 0xbd, 0x06, 0x96, 0xd4, 0x3d,
  0xe6, 0x7e, 0xaf, 0x3d, 0x30, 0x29, 0x43, 0x3c, 0x2a, 0x67, 0xda, 0x3d,
  0xb0, 0x18, 0x5f, 0x3c, 0x08, 0x45, 0x3d, 0x3d, 0x1e, 0x87, 0x8b, 0xbd,
  0x3c, 0xe8, 0xf8, 0xbd, 0x88, 0xde, 0x91, 0x3d, 0xe4, 0x6d, 0x82, 0xbc,
  0x9c, 0x58, 0x7a, 0x3d, 0x35, 0xf5, 0x99, 0xbd, 0x84, 0xad, 0x22, 0xbd,
  0xfc, 0xa4, 0xc2, 0x3d, 0xfc, 0x6d, 0xec, 0x3d, 0x1b, 0xb8, 0x02, 0xbe,
  0x4e, 0xed, 0x8f, 0xbd, 0x92, 0x67, 0x28, 0xbd, 0x1f, 0x65, 0xc6, 0xbd,
  0x50, 0xd0, 0xd2, 0xbc, 0x44, 0xf8, 0x93, 0x3d, 0xcf, 0xa0, 0x01, 0xbe,
  0xc4, 0x2f, 0x99, 0x3d, 0x1a, 0xe3, 0xf2, 0x3d, 0xac, 0x20, 0x43, 0xbd,
  0x06, 0xb9, 0xdd, 0x3d, 0xde, 0xcb, 0xa8, 0xbd, 0xb2, 0x6d, 0xd2, 0xbd,
  0x26, 0xad, 0x9f, 0x3d, 0x2a, 0x21, 0x8d, 0x3d, 0xf0, 0x80, 0x11, 0xbd,
  0x10, 0x5f, 0xce, 0xbd, 0xc4, 0x8c, 0x54, 0x3d, 0xbf, 0xc1, 0x01, 0xbe,
  0x9a, 0x9e, 0x67, 0xbd, 0x1a, 0x0e, 0x39, 0xbd, 0x00, 0x1f, 0xc9, 0xbb,
  0x12, 0xb7, 0x9a, 0x3d, 0x48, 0x43, 0x19, 0xbd, 0x30, 0xe6, 0xec, 0x3d,
  0x7a, 0xb0, 0xfb, 0x3d, 0x88, 0x5c, 0xe3, 0xbd, 0x25, 0x2f, 0xc8, 0xbd,
  0x28, 0xcb, 0x27, 0x3d, 0x18, 0xa1, 0x9a, 0x3d, 0xaa, 0xe2, 0xb7, 0xbd,
  0x90, 0xb1, 0x5f, 0x3d, 0x68, 0xf0, 0xf7, 0x3c, 0xe8, 0x72, 0xd9, 0x3c,
  0x14, 0xd9, 0x68, 0x3d, 0xf8, 0xdb, 0xdf, 0xbd, 0x52, 0xaf, 0x82, 0x3d,
  0xbc, 0xa3, 0x96, 0xbd, 0xc6, 0xfe, 0xb1, 0x3d, 0xec, 0x2e, 0x0b, 0xbd,
  0x1a, 0x1c, 0xc1, 0x3d, 0x30, 0x5c, 0x70, 0x3c, 0xd9, 0xad, 0xf7, 0xbd,
  0xc6, 0xe1, 0x99, 0xbd, 0x84, 0x8b, 0xc3, 0xbc, 0x90, 0xe1, 0x20, 0x3c,
  0x88, 0x5d, 0xc6, 0x3d, 0xc4, 0x88, 0xd1, 0x3d, 0x30, 0xbb, 0x36, 0xbc,
  0xd2, 0xa7, 0xda, 0xbd, 0xe2, 0x9e, 0x64, 0xbd, 0xbe, 0x0b, 0x41, 0xbd,
  0xee, 0xd3, 0xe4, 0x3d, 0x80, 0xab, 0xfe, 0xba, 0x76, 0x16, 0xb5, 0x3d,
  0x9a, 0x93, 0xa2, 0xbd, 0x82, 0xb6, 0x74, 0xbd, 0x80, 0xed, 0x55, 0x3b,
  0x78, 0xa2, 0x9c, 0xbd, 0x00, 0x04, 0xc1, 0x3c, 0x33, 0x3a, 0xe9, 0xbd,
  0x98, 0x80, 0xfa, 0x3c, 0x9c, 0xae, 0x01, 0x3d, 0x74, 0x43, 0xe2, 0x3d,
  0x20, 0x06, 0xe2, 0x3b, 0x58, 0x98, 0x54, 0x3d, 0x3c, 0xb7, 0xc7, 0x3d,
  0x06, 0xd9, 0xc2, 0xbd, 0x46, 0x43, 0xac, 0xbd, 0x86, 0xaa, 0xc5, 0x3d,
  0xde, 0xa4, 0x20, 0xbd, 0x98, 0x95, 0x52, 0xbd, 0x00, 0x9b, 0x26, 0x3b,
  0xf2, 0x5c, 0x9b, 0x3d, 0x94, 0xda, 0x1b, 0x3d, 0xa6, 0x7b, 0xa9, 0x3d,
  0xc6, 0x34, 0x87, 0xbd, 0x46, 0x37, 0x56, 0xbd, 0x7c, 0x74, 0x4f, 0x3d,
  0xba, 0x2b, 0xd4, 0xbd, 0x80, 0x99, 0x13, 0x3d, 0x34, 0x9e, 0x21, 0xbd,
  0xc0, 0x03, 0xa0, 0x3d, 0x38, 0xde, 0x5c, 0xbc, 0x22, 0xd7, 0xa5, 0xbd,
  0xe2, 0xee, 0x5d, 0xbd, 0x36, 0x34, 0xe7, 0xbd, 0x02, 0x68, 0x4f, 0xbd,
  0xbc, 0x61, 0xee, 0xbd, 0x1c, 0x1e, 0xdf, 0xbc, 0xe0, 0x9d, 0xb1, 0xbc,
  0x85, 0x45, 0x02, 0x3e, 0x26, 0x3e, 0x92, 0xbd, 0xf4, 0xab, 0xd3, 0x3d,
  0x5e, 0x11, 0xda, 0x3d, 0x52, 0xfb, 0x9a, 0x3d, 0xb2, 0x1d, 0xef, 0x3d,
  0x78, 0x69, 0xe6, 0x3d, 0x00, 0x00, 0x64, 0x3c, 0x28, 0x49, 0xb9, 0x3c,
  0x2e, 0xd2, 0x51, 0xbd, 0x5a, 0xe1, 0x57, 0xbd, 0x28, 0xb6, 0xcc, 0xbd,
  0xe7, 0x8a, 0xe5, 0xbd, 0x66, 0x4e, 0xfd, 0x3d, 0xbc, 0x73, 0x13, 0xbd,
  0x6e, 0x52, 0xec, 0xbd, 0x14, 0xba, 0x18, 0x3d, 0xc0, 0x9b, 0x84, 0xbd,
  0xf2, 0x9b, 0xeb, 0x3d, 0xf0, 0x7b, 0xf9, 0xbc, 0xcc, 0x66, 0x91, 0x3d,
  0x30, 0xa3, 0xe1, 0x3d, 0xcc, 0x5a, 0x05, 0xbd, 0x40, 0x7a, 0xd2, 0x3c,
  0x52, 0x36, 0xe6, 0xbd, 0x78, 0xac, 0xe5, 0xbd, 0x52, 0x74, 0x37, 0xbd,
  0xc4, 0x5b, 0x2f, 0xbd, 0x28, 0x45, 0xab, 0xbc, 0x80, 0x12, 0xe8, 0x3a,
  0xc0, 0xf2, 0xd5, 0x3d, 0x20, 0x8a, 0x9e, 0x3d, 0x90, 0x33, 0x95, 0xbb,
  0x28, 0x48, 0x98, 0x3c, 0xa8, 0x7f, 0xf9, 0x3c, 0xc2, 0x68, 0x03, 0xbe,
  0x24, 0x99, 0x99, 0xbd, 0xbc, 0xe8, 0x4e, 0x3d, 0x08, 0x88, 0x65, 0x3d,
  0x4c, 0xfe, 0x57, 0xbd, 0xa0, 0x5c, 0x31, 0x3c, 0x36, 0xc5, 0x7f, 0xbd,
  0x16, 0x18, 0x06, 0xbd, 0xc2, 0x35, 0xfd, 0x3d, 0x5d, 0x3f, 0xe3, 0xbd,
  0x00, 0x37, 0x50, 0xbb, 0x4c, 0x2b, 0xb9, 0x3d, 0xc8, 0x70, 0xae, 0x3c,
  0x44, 0xcf, 0xde, 0xbc, 0xc0, 0xf2, 0xfd, 0x3c, 0x8c, 0xb2, 0x92, 0xbd,
  0xaa, 0x15, 0xab, 0x3d, 0x62, 0x0d, 0x9b, 0x3d, 0xfa, 0x49, 0xfb, 0x3d,
  0xaa, 0x01, 0xd0, 0xbd, 0xf0, 0x0d, 0xc6, 0x3c, 0xd0, 0xa2, 0x80, 0x3c,
  0x9e, 0x50, 0xfe, 0x3d, 0x44, 0xa2, 0x22, 0xbd, 0x03, 0xa6, 0xd5, 0xbd,
  0x56, 0xde, 0xe7, 0x3d, 0xee, 0x5b, 0x87, 0xbd, 0xc8, 0x13, 0x76, 0x3d,
  0xc0, 0xe1, 0x3a, 0x3d, 0x30, 0xad, 0xdb, 0xbb, 0xe6, 0x41, 0x91, 0x3d,
  0xc4, 0x75, 0xe6, 0x3d, 0x78, 0xdd, 0x3a, 0xbd, 0xa5, 0x3b, 0xd3, 0xbd,
  0x1e, 0xef, 0x8d, 0xbd, 0x40, 0x75, 0x2e, 0xbb, 0xb6, 0x2d, 0xa3, 0xbd,
  0x32, 0x99, 0x37, 0xbd, 0xcc, 0x90, 0xbb, 0xbd, 0x30, 0x3c, 0xda, 0xbd,
  0xe4, 0x1f, 0x02, 0xbe, 0xae, 0x8d, 0xa8, 0xbd, 0x83, 0x44, 0x00, 0x3e,
  0x80, 0xd8, 0xc3, 0x3a, 0x36, 0x92, 0x90, 0xbd, 0xca, 0x10, 0xea, 0x3d,
  0x70, 0xf6, 0x5b, 0x3c, 0x60, 0xef, 0x3c, 0xbc, 0xc0, 0x69, 0x51, 0x3d,
  0x9e, 0x72, 0x8e, 0xbd, 0x6e, 0xcb, 0xc4, 0x3d, 0xb4, 0x72, 0x3c, 0x3d,
  0x7c, 0xb7, 0xc5, 0xbd, 0xf2, 0xd2, 0x25, 0xbd, 0x89, 0x45, 0xf3, 0xbd,
  0x08, 0xdd, 0xb4, 0x3d, 0x6e, 0x4d, 0xa0, 0x3d, 0xda, 0x46, 0xb0, 0x3d,
  0xde, 0xcf, 0xf0, 0x3d, 0xa8, 0x50, 0x51, 0x3d, 0xf9, 0x91, 0x01, 0x3e,
  0x08, 0x9f, 0xdf, 0x3c, 0xd0, 0xaa, 0xb4, 0x3d, 0x44, 0x43, 0xcf, 0x3d,
  0x70, 0x2d, 0x1d, 0x3d, 0xd2, 0xb0, 0x1e, 0xbd, 0x4a, 0x37, 0xf8, 0x3d,
  0x92, 0x94, 0x22, 0xbd, 0x52, 0xf4, 0xbe, 0x3d, 0x00, 0xee, 0x97, 0x3b,
  0x20, 0xe9, 0x62, 0xbc, 0x40, 0x7f, 0xd2, 0x3b, 0x54, 0x47, 0xf4, 0xbd,
  0xb8, 0xd9, 0x85, 0x3d, 0x7c, 0x35, 0x87, 0xbc, 0x70, 0xe7, 0x93, 0x3d,
  0x12, 0xb0, 0xff, 0xbd, 0x80, 0xca, 0xf4, 0x3a, 0x7a, 0x64, 0x20, 0xbd,
  0x00, 0x54, 0x86, 0xbc, 0x06, 0xa8, 0x49, 0xbd, 0x36, 0xe4, 0xdc, 0xbd,
  0xf4, 0x9c, 0x4d, 0x3d, 0x32, 0xf5, 0x85, 0x3d, 0xa0, 0x10, 0x5e, 0x3d,
  0xe6, 0x17, 0x42, 0xbd, 0xd0, 0xbb, 0x9e, 0x3d, 0x81, 0x5d, 0x01, 0x3e,
  0x82, 0xd2, 0xeb, 0x3d, 0x96, 0x22, 0x91, 0xbd, 0x80, 0x1f, 0xfa, 0x3b,
  0xe0, 0x7a, 0x94, 0x3b, 0x24, 0x9b, 0x91, 0xbd, 0xac, 0xc4, 0x15, 0xbd,
  0x2c, 0xf5, 0x2b, 0x3d, 0x64, 0xd6, 0x13, 0xbd, 0xb4, 0xd7, 0x8d, 0xbd,
  0x8c, 0x20, 0xb9, 0xbd, 0xcc, 0xa0, 0xae, 0xbc, 0x4a, 0x8d, 0x33, 0xbd,
  0x1a, 0x48, 0xe4, 0x3d, 0xd0, 0xeb, 0x7e, 0xbc, 0x50, 0xbc, 0xcc, 0x3d,
  0xc2, 0x25, 0xc6, 0xbd, 0x88, 0xa4, 0xb1, 0xbd, 0xe2, 0xcd, 0xf2, 0x3d,
  0x18, 0xb1, 0xf1, 0x3d, 0x24, 0xdd, 0x30, 0xbd, 0xa4, 0x89, 0x32, 0xbd,
  0x0a, 0x7d, 0x74, 0xbd, 0xca, 0x0e, 0xe6, 0xbd, 0x84, 0x94, 0xad, 0xbd,
  0xbc, 0x7c, 0xc8, 0x3d, 0xe6, 0x76, 0x9e, 0x3d, 0xc0, 0x10, 0x2b, 0xbd,
  0x2e, 0x7a, 0x35, 0xbd, 0x3d, 0x4f, 0x9d, 0xbd, 0x64, 0x70, 0x71, 0x3d,
  0xe8, 0x2d, 0xb3, 0x3c, 0x00, 0x70, 0x04, 0xbd, 0x1a, 0xe8, 0xac, 0x3d,
  0xb8, 0xf7, 0xa0, 0x3d, 0x7e, 0xad, 0xe3, 0x3d, 0x64, 0x21, 0x9d, 0xbc,
  0xa8, 0x30, 0x8e, 0x3d, 0x00, 0xee, 0xc0, 0x3a, 0xa3, 0x9e, 0xdb, 0xbd,
  0x54, 0x43, 0x56, 0xbd, 0xf0, 0x26, 0xe6, 0x3c, 0x6c, 0xe8, 0x94, 0x3d,
  0x78, 0x73, 0x06, 0xbc, 0x7c, 0xcc, 0x98, 0x3d, 0xf4, 0x08, 0x33, 0x3d,
  0xf4, 0x64, 0xa3, 0xbd, 0xc2, 0x24, 0xca, 0xbd, 0xd0, 0x6a, 0xe8, 0xbd,
  0x52, 0x94, 0x6e, 0xbd, 0x20, 0xb4, 0xc4, 0xbd, 0xfc, 0x38, 0xaf, 0xbc,
  0x3f, 0x2c, 0xb4, 0xbd, 0x5a, 0x2e, 0x1f, 0xbd, 0xe8, 0x0c, 0xbf, 0x3c,
  0x14, 0xd0, 0xe3, 0x3d, 0x40, 0x3a, 0x9c, 0xbb, 0x68, 0xca, 0xf6, 0x3c,
  0x1a, 0x96, 0xe9, 0xbd, 0xd9, 0xe7, 0xeb, 0xbd, 0x26, 0x05, 0xc0, 0x3d,
  0x88, 0xd6, 0x1e, 0xbd, 0xc2, 0x68, 0x0e, 0xbd, 0x46, 0xe0, 0xd7, 0x3d,
  0x38, 0xc8, 0x41, 0xbc, 0xd0, 0x0f, 0x7c, 0x3c, 0xc6, 0x8e, 0xee, 0xbd,
  0xda, 0x9f, 0xae, 0x3d, 0x60, 0x52, 0xb9, 0xbd, 0x38, 0x33, 0xc3, 0xbd,
  0x90, 0x02, 0x28, 0x3c, 0xa0, 0x34, 0x92, 0x3d, 0x0c, 0x4f, 0x95, 0x3d,
  0x6a, 0xab, 0x6a, 0xbd, 0x28, 0xd2, 0x39, 0xbd, 0x0d, 0x0d, 0x00, 0x3e,
  0x54, 0xf8, 0x1c, 0x3d, 0xbc, 0x59, 0xe1, 0xbc, 0x16, 0x69, 0xb2, 0x3d,
  0xa0, 0x4a, 0x30, 0xbd, 0xf8, 0xbd, 0xb4, 0x3c, 0x70, 0x4f, 0x5a, 0xbc,
  0x40, 0x7a, 0x7e, 0x3c, 0x38, 0x34, 0x86, 0xbc, 0xc4, 0x18, 0x27, 0x3d,
  0x80, 0x81, 0x06, 0xbc, 0x94, 0x3d, 0xc3, 0xbc, 0x32, 0x09, 0xa4, 0xbd,
  0x00, 0x86, 0x41, 0x3b, 0x68, 0x73, 0xa1, 0x3c, 0x23, 0x98, 0x02, 0x3e,
  0x4b, 0xc2, 0x00, 0xbe, 0x3c, 0xfd, 0x8c, 0x3d, 0x23, 0xe4, 0xcd, 0xbd,
  0x67, 0x04, 0xa2, 0xbd, 0x90, 0x87, 0xca, 0x3d, 0x08, 0xc3, 0xbc, 0x3c,
  0x86, 0x87, 0x90, 0x3d, 0xe2, 0x18, 0x0c, 0xbd, 0x94, 0x8e, 0x55, 0x3d,
  0x5a, 0x06, 0xf4, 0xbd, 0x28, 0xb7, 0xb8, 0xbd, 0x0e, 0x92, 0xd8, 0xbd,
  0xc0, 0x4f, 0xb8, 0x3d, 0xfc, 0x70, 0x0a, 0x3d, 0x68, 0xd4, 0x38, 0xbc,
  0x27, 0xac, 0x03, 0xbe, 0x80, 0x2e, 0x01, 0x3d, 0xc4, 0x63, 0x39, 0x3d,
  0x1c, 0x47, 0xab, 0xbd, 0x44, 0x1f, 0x59, 0x3d, 0x30, 0xeb, 0x30, 0x3d,
  0xf4, 0xc4, 0x8b, 0x3d, 0xf0, 0x52, 0x21, 0x3d, 0xc0, 0xab, 0xb3, 0x3c,
  0x38, 0xd6, 0x42, 0x3d, 0x00, 0x56, 0x9f, 0xbd, 0x7e, 0x2b, 0xd1, 0x3d,
  0x82, 0xcc, 0xcc, 0xbd, 0xe1, 0x18, 0xff, 0xbd, 0xb0, 0xab, 0x83, 0xbc,
  0xa5, 0x37, 0xc2, 0xbd, 0xbe, 0x82, 0x43, 0xbd, 0x40, 0xb4, 0xab, 0x3b,
  0x0c, 0xa4, 0x4c, 0x3d, 0xa8, 0x62, 0xba, 0xbd, 0x20, 0xe1, 0x5b, 0x3c,
  0x46, 0xb0, 0xb7, 0x3d, 0x14, 0x11, 0xa4, 0x3d, 0xe4, 0xd8, 0xca, 0x3d,
  0xa5, 0x0b, 0x02, 0x3e, 0xc0, 0xda, 0xd9, 0x3b, 0xee, 0xae, 0x43, 0xbd,
  0x30, 0x53, 0xa6, 0x3d, 0x84, 0x61, 0x8b, 0xbc, 0xdc, 0xbb, 0x75, 0x3d,
  0x86, 0xb1, 0x2d, 0xbd, 0x68, 0x33, 0x94, 0xbd, 0xf0, 0xb4, 0xa8, 0xbd,
  0x1c, 0x5e, 0x6d, 0x3d, 0x7e, 0xa5, 0x44, 0xbd, 0xd0, 0xbd, 0x72, 0xbd,
  0xf0, 0x19, 0x9f, 0x3d, 0x00, 0x0b, 0x5a, 0x3b, 0x04, 0xc9, 0xde, 0xbd,
  0xd0, 0x0b, 0xd6, 0x3d, 0x9c, 0x93, 0xac, 0x3d, 0x31, 0xb1, 0xf5, 0xbd,
  0x00, 0x16, 0xa8, 0x3c, 0x4a, 0x6d, 0xc1, 0x3d, 0xc0, 0x7c, 0x9d, 0xbd,
  0x44, 0x11, 0x55, 0xbd, 0x69, 0x93, 0xfd, 0xbd, 0xcb, 0xc5, 0x02, 0x3e,
  0x08, 0x3b, 0x99, 0xbd, 0xb6, 0xd2, 0xa7, 0xbd, 0x20, 0x97, 0x9f, 0x3b,
  0x12, 0x29, 0xdd, 0xbd, 0x52, 0x4b, 0xf9, 0x3d, 0x2c, 0xc1, 0x53, 0xbd,
  0xcc, 0xba, 0xbb, 0xbd, 0x34, 0x0c, 0xe4, 0x3d, 0x2e, 0xb5, 0xa4, 0x3d,
  0x5d, 0xe0, 0x02, 0xbe, 0xf4, 0x34, 0xb7, 0xbc, 0xec, 0x7e, 0x84, 0xbc,
  0x60, 0x22, 0x1f, 0xbc, 0x1a, 0xbf, 0xcd, 0x3d, 0x74, 0x7f, 0xda, 0xbd,
  0xfe, 0x67, 0xe3, 0x3d, 0xc2, 0x5d, 0xcf, 0x3d, 0x14, 0xe1, 0xdb, 0x3d,
  0xd0, 0xfc, 0x56, 0x3c, 0x00, 0x71, 0x51, 0x3c, 0x72, 0xe1, 0x0b, 0xbd,
  0x34, 0xec, 0x43, 0xbd, 0x4e, 0xc7, 0xd0, 0x3d, 0x8c, 0x66, 0x5d, 0xbd,
  0xe0, 0x27, 0x77, 0x3c, 0xaa, 0xfd, 0x63, 0xbd, 0x48, 0x09, 0xc1, 0x3c,
  0x98, 0xe9, 0xa9, 0xbc, 0xdd, 0x8d, 0x02, 0x3e, 0xc0, 0x84, 0x94, 0xbb,
  0xbc, 0xb1, 0xaa, 0xbc, 0x96, 0x36, 0xfc, 0x3d, 0xd0, 0xc2, 0xaf, 0xbc,
  0x32, 0x2a, 0x58, 0xbd, 0x83, 0x31, 0x01, 0x3e, 0xb2, 0x76, 0xf8, 0x3d,
  0x54, 0x12, 0x81, 0xbd, 0x94, 0x7f, 0x94, 0xbd, 0x62, 0x13, 0x41, 0xbd,
  0xbe, 0x6f, 0xf8, 0x3d, 0x98, 0xa8, 0xac, 0xbc, 0xf0, 0xc8, 0x8a, 0xbb,
  0x4e, 0x34, 0x90, 0x3d, 0x28, 0x5e, 0x05, 0xbc, 0x80, 0x74, 0xff, 0xba,
  0x6c, 0xbf, 0xe9, 0x3d, 0x36, 0xe8, 0xcc, 0xbd, 0x5b, 0x9d, 0xfa, 0xbd,
  0x28, 0x44, 0xe0, 0x3d, 0x34, 0x63, 0x3f, 0x3d, 0x10, 0xba, 0x25, 0xbd,
  0x82, 0x0e, 0x2e, 0xbd, 0x0c, 0x2f, 0xfe, 0xbd, 0x60, 0x2b, 0x75, 0x3c,
  0xa0, 0x08, 0x63, 0xbd, 0x0e, 0x62, 0xc0, 0xbd, 0x7e, 0x18, 0xfd, 0x3d,
  0x93, 0x69, 0x01, 0xbe, 0xfa, 0x94, 0xe5, 0x3d, 0x80, 0xf7, 0x66, 0x3b,
  0x10, 0x7a, 0xe5, 0xbd, 0x28, 0xe0, 0xf3, 0xbd, 0x0c, 0x94, 0xeb, 0x3d,
  0x3e, 0xdc, 0xa8, 0x3d, 0xac, 0x4a, 0x95, 0xbc, 0x10, 0x49, 0x4e, 0x3c,
  0x5a, 0x1d, 0x9e, 0x3d, 0x4f, 0x8d, 0x01, 0xbe, 0xc9, 0x0c, 0xc8, 0xbd,
  0xf8, 0x0e, 0xbe, 0xbd, 0xda, 0x94, 0xef, 0xbd, 0xd8, 0x8a, 0x90, 0x3d,
  0xb5, 0x9f, 0xfe, 0xbd, 0x82, 0xa3, 0x36, 0xbd, 0xc0, 0x2c, 0xec, 0xbc,
  0xfc, 0x0f, 0x0c, 0xbd, 0xbc, 0x8b, 0xba, 0x3d, 0xe4, 0x87, 0xd1, 0xbc,
  0x09, 0x44, 0x9c, 0xbd, 0x44, 0x51, 0xd9, 0xbc, 0x00, 0x54, 0x27, 0x3c,
  0xec, 0x3d, 0x0e, 0xbd, 0x82, 0x28, 0xa4, 0xbd, 0xe7, 0xf8, 0xed, 0xbd,
  0xe7, 0xfe, 0x8f, 0xbd, 0x3a, 0x8a, 0xd0, 0x3d, 0x76, 0xed, 0xed, 0x3d,
  0x18, 0x26, 0x02, 0x3d, 0xb6, 0x16, 0xab, 0x3d, 0x58, 0x03, 0x8e, 0xbd,
  0x70, 0xe5, 0x7e, 0xbd, 0xac, 0x6a, 0x35, 0x3d, 0xc0, 0x2b, 0xf8, 0xbb,
  0x56, 0xe8, 0x0a, 0xbd, 0x38, 0xcf, 0xd0, 0x3c, 0xe0, 0xec, 0x00, 0x3d,
  0xae, 0x3a, 0x7d, 0xbd, 0x70, 0x12, 0xa6, 0xbd, 0x78, 0x1f, 0xa3, 0x3c,
  0x84, 0xf1, 0xb1, 0xbd, 0xc8, 0xdf, 0xa0, 0x3c, 0x40, 0x59, 0xa2, 0x3d,
  0x4c, 0xe3, 0x87, 0xbd, 0xb4, 0x73, 0xd4, 0xbc, 0x04, 0xc3, 0xe9, 0x3d,
  0x64, 0xc0, 0xb7, 0xbc, 0x9a, 0x56, 0xcf, 0x3d, 0x2a, 0xc6, 0xf3, 0x3d,
  0x00, 0x35, 0x28, 0xbb, 0x80, 0xaf, 0x49, 0x3c, 0x66, 0x69, 0xfc, 0x3d,
  0x00, 0x6e, 0x53, 0x3c, 0xfc, 0xae, 0x96, 0x3d, 0x86, 0xd0, 0xd9, 0xbd,
  0xf4, 0x1d, 0xff, 0xbd, 0xf2, 0xaf, 0xa9, 0x3d, 0xc4, 0x7d, 0xb3, 0xbd,
  0x62, 0xd9, 0xfc, 0x3d, 0x92, 0x94, 0xd0, 0x3d, 0x8e, 0x2f, 0xb2, 0xbd,
  0x91, 0xc0, 0xf1, 0xbd, 0xec, 0x2f, 0xa9, 0x3d, 0x80, 0x0d, 0xa7, 0x3a,
  0xfa, 0x7f, 0x64, 0xbd, 0xc2, 0x3d, 0xae, 0xbd, 0x62, 0xa7, 0x94, 0xbd,
  0x14, 0x98, 0xe3, 0xbc, 0x60, 0x01, 0x23, 0xbc, 0x74, 0x9b, 0xb0, 0x3d,
  0x24, 0x44, 0x2e, 0x3d, 0x5e, 0x65, 0xaf, 0x3d, 0x7a, 0xee, 0xa3, 0x3d,
  0xaa, 0x4f, 0xbb, 0x3d, 0x1a, 0xf5, 0xa7, 0x3d, 0x45, 0x42, 0xf9, 0xbd,
  0x76, 0x08, 0xfa, 0x3d, 0x08, 0x7e, 0x61, 0xbd, 0x10, 0xac, 0x4c, 0x3d,
  0xb7, 0x7b, 0x80, 0xbd, 0x34, 0x28, 0x62, 0x3d, 0x40, 0x6b, 0x94, 0x3c,
  0x3a, 0x40, 0x96, 0xbd, 0x58, 0xc7, 0xe4, 0x3d, 0x68, 0x6f, 0x21, 0xbc,
  0x00, 0xed, 0xbd, 0x3d, 0x36, 0x12, 0x94, 0x3d, 0x2c, 0x94, 0x4f, 0x3d,
  0xf6, 0x2e, 0xad, 0x3d, 0x34, 0xc4, 0xd7, 0xbd, 0xdf, 0x12, 0x00, 0x3e,
  0xe3, 0x10, 0xda, 0xbd, 0x44, 0x58, 0x4b, 0x3d, 0xe6, 0x72, 0x9c, 0xbd,
  0x3b, 0x98, 0xe9, 0xbd, 0x24, 0xe8, 0x80, 0x3d, 0xfc, 0x21, 0xe2, 0xbd,
  0xee, 0xad, 0xf3, 0xbd, 0x8c, 0x07, 0x96, 0xbc, 0x38, 0x75, 0xfc, 0x3c,
  0xd6, 0x91, 0xc9, 0x3d, 0xbd, 0x2a, 0xf8, 0xbd, 0xea, 0x8f, 0xd0, 0xbd,
  0xa2, 0x46, 0x63, 0xbd, 0x1c, 0x09, 0x19, 0xbd, 0x18, 0x04, 0xec, 0x3d,
  0xf0, 0x20, 0x51, 0x3c, 0x99, 0x92, 0x90, 0xbd, 0x3c, 0x97, 0x50, 0x3d,
  0x04, 0xc7, 0x35, 0x3d, 0x60, 0x51, 0x69, 0x3c, 0xc0, 0xca, 0x20, 0xbb,
  0x78, 0x36, 0xeb, 0xbd, 0xdc, 0xd1, 0x72, 0x3d, 0x7c, 0x8a, 0x9b, 0xbd,
  0x6c, 0xa5, 0x84, 0xbd, 0xcf, 0x0c, 0x01, 0xbe, 0x38, 0xc9, 0x57, 0x3d,
  0x3c, 0xa5, 0x93, 0xbc, 0x45, 0x1c, 0x85, 0xbd, 0x90, 0xdc, 0xae, 0xbb,
  0x58, 0x9f, 0xd6, 0xbd, 0x00, 0x42, 0xad, 0xbc, 0xfb, 0x7f, 0xac, 0xbd,
  0xb0, 0xc6, 0x77, 0x3c, 0xac, 0xeb, 0xd9, 0x3d, 0x18, 0x7a, 0x2e, 0xbd,
  0xb8, 0xf4, 0xc1, 0xbd, 0x5c, 0x08, 0xe6, 0xbd, 0xae, 0x4b, 0x70, 0xbd,
  0xdc, 0x12, 0x95, 0xbc, 0x6d, 0x89, 0x98, 0xbd, 0x94, 0x36, 0xcd, 0xbd,
  0x62, 0x64, 0x9a, 0xbd, 0xd5, 0xd6, 0x03, 0xbe, 0x80, 0x2d, 0x86, 0xba,
  0xf0, 0xf4, 0xdd, 0xbc, 0x3b, 0x04, 0x03, 0x3e, 0x36, 0x60, 0x81, 0xbd,
  0xc8, 0x62, 0xc5, 0x3d, 0x26, 0xd9, 0xe7, 0xbd, 0x0a, 0x8f, 0x46, 0xbd,
  0x4a, 0x1f, 0xbc, 0x3d, 0xf0, 0x73, 0xf0, 0xbc, 0xb2, 0xb0, 0x51, 0xbd,
  0x12, 0x03, 0xac, 0x3d, 0x74, 0xba, 0xa1, 0x3d, 0xac, 0xf6, 0xe2, 0xbc,
  0x90, 0xce, 0x94, 0xbd, 0xcc, 0xe9, 0xb1, 0x3d, 0x60, 0xe7, 0xb8, 0xbd,
  0x01, 0x34, 0xb6, 0xbd, 0x2a, 0xa6, 0xe7, 0x3d, 0x0c, 0x18, 0x7a, 0x3d,
  0x04, 0xab, 0xa1, 0x3d, 0x6e, 0x79, 0x81, 0xbd, 0xa8, 0x1f, 0x63, 0xbc,
  0x60, 0x85, 0x98, 0x3b, 0x48, 0xdc, 0x22, 0x3d, 0x2a, 0xba, 0xd8, 0x3d,
  0xfa, 0xf9, 0x56, 0xbd, 0x28, 0x42, 0x99, 0x3d, 0xea, 0x2b, 0xfb, 0x3d,
  0x0c, 0x37, 0x4d, 0x3d, 0x6c, 0x22, 0xb1, 0xbd, 0x72, 0x71, 0x2c, 0xbd,
  0xfc, 0x56, 0xf0, 0xbc, 0x20, 0x3a, 0x9e, 0x3c, 0xa4, 0xf6, 0x88, 0xbd,
  0xe8, 0x5e, 0x19, 0x3d, 0xb7, 0x43, 0xe7, 0xbd, 0x8c, 0x5f, 0xce, 0x3d,
  0x6e, 0x15, 0xda, 0xbd, 0xc7, 0x92, 0x03, 0x3e, 0xe8, 0x60, 0xd7, 0x3c,
  0x88, 0xbc, 0x8c, 0x3d, 0xba, 0x8c, 0xb4, 0x3d, 0xbb, 0xed, 0xba, 0xbd,
  0x88, 0x56, 0xa4, 0x3d, 0x28, 0x1e, 0x12, 0x3d, 0xd6, 0xf9, 0x22, 0xbd,
  0x24, 0xe1, 0xf7, 0xbd, 0x74, 0xb5, 0xb9, 0x3d, 0xc7, 0xf1, 0xaa, 0xbd,
  0x38, 0x32, 0xb4, 0x3c, 0x89, 0x75, 0x9f, 0xbd, 0x86, 0x9e, 0xce, 0xbd,
  0xa0, 0xf0, 0xfa, 0x3c, 0x3d, 0x2d, 0xe8, 0xbd, 0x60, 0x48, 0xb2, 0xbd,
  0x00, 0x58, 0x41, 0xb9, 0x5a, 0x88, 0xcb, 0x3d, 0xf2, 0x5b, 0x45, 0xbd,
  0x84, 0xaf, 0xf2, 0x3d, 0xe6, 0xf9, 0xb6, 0xbd, 0xc8, 0xd8, 0xdf, 0x3d,
  0xf8, 0xc4, 0x68, 0x3d, 0x3f, 0xde, 0xcb, 0xbd, 0x40, 0xfb, 0xa5, 0xbd,
  0xcc, 0x9c, 0x46, 0x3d, 0xe1, 0x73, 0xc5, 0xbd, 0xc0, 0x24, 0x53, 0x3b,
  0x24, 0x94, 0x9b, 0x3d, 0x2a, 0x28, 0xe9, 0x3d, 0xe0, 0x21, 0x52, 0xbc,
  0x60, 0xc4, 0x08, 0xbc, 0x9a, 0xbc, 0xd9, 0xbd, 0x42, 0x0a, 0x8a, 0xbd,
  0xea, 0x04, 0x99, 0x3d, 0x23, 0x93, 0xfd, 0xbd, 0xb6, 0x3b, 0x01, 0xbe,
  0x40, 0x46, 0x8e, 0x3c, 0xd0, 0x03, 0x0e, 0x3d, 0x78, 0x5f, 0x1d, 0xbd,
  0x8d, 0x1e, 0x94, 0xbd, 0xee, 0xf7, 0xdf, 0x3d, 0x7c, 0xe8, 0xc8, 0x3d,
  0x94, 0xa9, 0x01, 0x3d, 0x60, 0x8e, 0xf4, 0x3d, 0x80, 0x4e, 0x47, 0xbb,
  0x34, 0x59, 0xc3, 0x3d, 0xec, 0xe6, 0x7f, 0x3d, 0xd0, 0x61, 0xdf, 0xbb,
  0x0d, 0xb5, 0xce, 0xbd, 0xa4, 0x3b, 0xc1, 0xbd, 0xe8, 0xa4, 0x95, 0xbd,
  0xe0, 0x94, 0x15, 0x3c, 0x3a, 0xcc, 0xf4, 0xbd, 0x26, 0x16, 0xab, 0x3d,
  0xa0, 0x9b, 0x0f, 0x3d, 0x88, 0x7c, 0xaf, 0x3c, 0x58, 0xad, 0xc1, 0xbc,
  0x98, 0x30, 0x9a, 0x3d, 0x28, 0xae, 0x8e, 0x3c, 0x30, 0x88, 0xa7, 0x3c,
  0xa0, 0x7f, 0x8d, 0x3c, 0x5c, 0xa3, 0x74, 0xbd, 0xc0, 0xa9, 0xc3, 0xbc,
  0xd7, 0xd9, 0x9c, 0xbd, 0x80, 0x4f, 0x82, 0x3d, 0x50, 0xe5, 0x19, 0x3c,
  0x54, 0xf0, 0x2b, 0x3d, 0x94, 0xae, 0x19, 0x3d, 0x88, 0xa5, 0x3c, 0x3d,
  0x78, 0x0c, 0xa9, 0x3d, 0x19, 0x33, 0xf7, 0xbd, 0x6c, 0x7d, 0xc2, 0xbc,
  0xdc, 0x60, 0x5a, 0x3d, 0x54, 0xf1, 0x7d, 0xbd, 0xec, 0xa4, 0x0d, 0x3d,
  0x80, 0xb9, 0x80, 0xbd, 0x58, 0xa1, 0x51, 0xbc, 0xc8, 0x69, 0x15, 0x3d,
  0x00, 0x80, 0x18, 0x3d, 0xe3, 0x18, 0xfd, 0xbd, 0x80, 0x2c, 0xe0, 0x3d,
  0xe8, 0x80, 0x91, 0xbd, 0xae, 0xfe, 0xba, 0x3d, 0x3a, 0x14, 0xff, 0x3d,
  0xe4, 0x17, 0xf2, 0x3d, 0x23, 0xc7, 0x8d, 0xbd, 0x28, 0x88, 0x25, 0xbc,
  0x7c, 0x53, 0xd1, 0x3d, 0xe8, 0x2b, 0x82, 0xbd, 0xfc, 0x25, 0x22, 0x3d,
  0x54, 0x32, 0xe4, 0x3d, 0xd0, 0xc2, 0xee, 0x3c, 0x7e, 0x3b, 0x5e, 0xbd,
  0xfe, 0x98, 0xc9, 0xbd, 0x2c, 0x04, 0xd6, 0x3d, 0xb6, 0xe6, 0xf6, 0x3d,
  0xae, 0x59, 0x74, 0xbd, 0xb0, 0x0e, 0x87, 0xbb, 0x0a, 0x43, 0x91, 0x3d,
  0x70, 0x0c, 0x3e, 0xbd, 0x48, 0x3b, 0xf7, 0x3c, 0xb0, 0x23, 0x5a, 0x3d,
  0xde, 0xf6, 0x10, 0xbd, 0xa8, 0x4e, 0xe8, 0x3c, 0xe1, 0xf9, 0x80, 0xbd,
  0x67, 0xd3, 0x01, 0x3e, 0x02, 0x5f, 0xf6, 0xbd, 0xe0, 0x8c, 0xad, 0x3b,
  0xc4, 0x83, 0x8a, 0xbd, 0x40, 0xaa, 0x16, 0x3d, 0xae, 0xd1, 0xc3, 0x3d,
  0xd4, 0xd6, 0x39, 0x3d, 0xfa, 0xcd, 0xee, 0xbd, 0xf1, 0x68, 0xc2, 0xbd,
  0x38, 0x0b, 0xb7, 0x3d, 0xf8, 0xfd, 0xad, 0x3c, 0x13, 0x2d, 0x03, 0x3e,
  0x72, 0x2c, 0x35, 0xbd, 0xdc, 0x4a, 0x81, 0x3d, 0x72, 0x95, 0xd1, 0x3d,
  0x58, 0xfe, 0xbd, 0x3c, 0x9e, 0x2d, 0x94, 0xbd, 0x40, 0x3b, 0xb3, 0x3c,
  0x5d, 0xa2, 0x03, 0x3e, 0x22, 0xbc, 0xf5, 0xbd, 0x0c, 0xd3, 0x69, 0xbd,
  0x20, 0x85, 0x51, 0x3c, 0xa2, 0x1e, 0x84, 0x3d, 0x3e, 0xb9, 0x94, 0x3d,
  0xa8, 0x24, 0x9f, 0xbd, 0xd8, 0x72, 0xf6, 0x3d, 0x74, 0x08, 0x10, 0x3d,
  0xb0, 0x9f, 0x83, 0x3c, 0x5c, 0x69, 0x25, 0xbd, 0x56, 0xad, 0x3e, 0xbd,
  0xcf, 0xfe, 0x02, 0x3e, 0xc2, 0x31, 0xf6, 0x3d, 0xe3, 0xfd, 0x97, 0xbd,
  0x70, 0xe7, 0x0f, 0xbc, 0x98, 0x69, 0x8f, 0xbd, 0xe2, 0x60, 0xfc, 0xbd,
  0x80, 0xa6, 0x62, 0x3c, 0x09, 0xaa, 0xb7, 0xbd, 0xc2, 0x0e, 0x2c, 0xbd,
  0x7a, 0x03, 0x8b, 0x3d, 0xfc, 0x0d, 0xd1, 0x3d, 0x0b, 0x80, 0xf2, 0xbd,
  0x90, 0xa5, 0x0f, 0x3c, 0x3e, 0xf3, 0x81, 0x3d, 0x80, 0x99, 0x9a, 0x3d,
  0x28, 0x6f, 0xf2, 0x3d, 0x0a, 0xee, 0x74, 0xbd, 0xa8, 0x0f, 0x49, 0xbc,
  0x48, 0x37, 0xc5, 0x3c, 0x14, 0x54, 0xdc, 0x3d, 0x2c, 0x0b, 0x95, 0x3d,
  0x68, 0xf0, 0xde, 0x3c, 0x5e, 0x27, 0xc5, 0xbd, 0x58, 0x4a, 0xb3, 0x3c,
  0x8c, 0xf9, 0x11, 0xbd, 0x6e, 0xa2, 0xfb, 0x3d, 0x18, 0xad, 0x84, 0x3d,
  0x00, 0xb5, 0x4d, 0xbb, 0x84, 0x38, 0xc6, 0x3d, 0x1f, 0xd6, 0x99, 0xbd,
  0x1c, 0x08, 0xfd, 0xbc, 0x84, 0x03, 0x8c, 0xbc, 0x3c, 0xd6, 0x83, 0xbc,
  0x12, 0x0a, 0xad, 0x3d, 0xaa, 0x0c, 0xa8, 0x3d, 0x39, 0xf7, 0x00, 0xbe,
  0x6e, 0x6e, 0xc1, 0xbd, 0xce, 0x90, 0x8f, 0x3d, 0x3a, 0xe2, 0x95, 0xbd,
  0x30, 0x2a, 0x95, 0xbc, 0x1c, 0xfa, 0xaf, 0x3d, 0xe8, 0x30, 0x7b, 0xbd,
  0x6a, 0x06, 0xd6, 0x3d, 0xf8, 0x62, 0x22, 0x3d, 0xc0, 0x59, 0x43, 0xbb,
  0x10, 0x24, 0xcd, 0x3d, 0xe8, 0xe7, 0x83, 0xbd, 0xc6, 0x5e, 0xb1, 0x3d,
  0x46, 0xb9, 0x8c, 0x3d, 0x18, 0x4d, 0x4f, 0x3d, 0xa4, 0xb9, 0x93, 0xbd,
  0x1a, 0xde, 0x81, 0xbd, 0xd0, 0xb0, 0xb8, 0xbb, 0x1a, 0xf4, 0xd8, 0x3d,
  0xa8, 0xee, 0xab, 0xbd, 0x92, 0xc9, 0xdc, 0xbd, 0x3d, 0x52, 0xe4, 0xbd,
  0xc0, 0xbc, 0xe5, 0x3d, 0xe0, 0x61, 0xe5, 0x3d, 0x90, 0xc0, 0x93, 0xbc,
  0x00, 0xa0, 0x21, 0x3a, 0x00, 0xd4, 0x8a, 0x3d, 0xe8, 0xc6, 0xa9, 0x3c,
  0x20, 0xba, 0xfa, 0x3b, 0xb2, 0x83, 0xbe, 0x3d, 0x74, 0x36, 0x7a, 0x3d,
  0x18, 0xc3, 0xb7, 0xbd, 0x86, 0xe7, 0x87, 0x3d, 0x10, 0xee, 0xca, 0xbc,
  0x40, 0x22, 0x46, 0x3c, 0xc8, 0x1e, 0x61, 0x3d, 0xc8, 0x69, 0x5f, 0xbd,
  0x30, 0xe6, 0xdc, 0xbb, 0xe4, 0x99, 0x91, 0xbc, 0xbc, 0xf1, 0x9f, 0xbd,
  0xd8, 0x08, 0xc9, 0x3d, 0x48, 0xc8, 0x6f, 0x3d, 0x00, 0x9d, 0xa2, 0x3d,
  0xc9, 0x08, 0x03, 0xbe, 0x88, 0xe8, 0xcc, 0xbc, 0x20, 0xd6, 0x41, 0x3c,
  0x00, 0x00, 0xfb, 0x3b, 0x9c, 0xca, 0x58, 0x3d, 0x93, 0x42, 0x01, 0xbe,
  0x4a, 0x36, 0x99, 0x3d, 0xec, 0x85, 0xe4, 0x3d, 0x80, 0xbb, 0xde, 0xbb,
  0xe6, 0xaa, 0xe7, 0xbd, 0x6a, 0x8c, 0x43, 0xbd, 0x87, 0xb1, 0x00, 0x3e,
  0x17, 0xa9, 0xc9, 0xbd, 0xf0, 0xfc, 0x0d, 0x3d, 0x88, 0x91, 0xce, 0x3d,
  0x86, 0x8d, 0x95, 0x3d, 0x3e, 0x18, 0xec, 0x3d, 0xa0, 0x66, 0x77, 0x3c,
  0x20, 0x77, 0xea, 0x3c, 0x60, 0x6b, 0x21, 0x3d, 0xb8, 0x15, 0xbc, 0x3d,
  0xd6, 0x57, 0xcd, 0xbd, 0x50, 0x29, 0xd6, 0x3d, 0x66, 0xf9, 0xa1, 0xbd,
  0x80, 0xf7, 0xdc, 0xbd, 0xc8, 0x9c, 0x28, 0xbc, 0xbc, 0x49, 0x7c, 0x3d,
  0x2c, 0x5e, 0x4e, 0x3d, 0x70, 0x46, 0x1f, 0x3c, 0x10, 0x0a, 0x84, 0x3c,
  0xb8, 0x24, 0xf9, 0x3c, 0xea, 0x07, 0x88, 0x3d, 0x00, 0xe4, 0xca, 0xbb,
  0xc6, 0x0d, 0x94, 0xbd, 0x47, 0x51, 0x9f, 0xbd, 0xe0, 0xbd, 0xe0, 0x3d,
  0x2e, 0x69, 0xea, 0x3d, 0x74, 0xbe, 0x89, 0x3d, 0x94, 0x81, 0xec, 0xbc,
  0x5c, 0x8d, 0xf8, 0xbc, 0x48, 0xea, 0xcf, 0xbd, 0xdb, 0xb0, 0xb4, 0xbd,
  0xee, 0xf8, 0xf4, 0x3d, 0x87, 0xea, 0xe0, 0xbd, 0x7e, 0xfd, 0x71, 0xbd,
  0x9e, 0x75, 0x9f, 0x3d, 0x26, 0x07, 0xb9, 0x3d, 0x68, 0x71, 0x67, 0xbc,
  0xe0, 0x54, 0x9d, 0x3b, 0x48, 0x9a, 0x68, 0x3d, 0xa8, 0x5f, 0xe4, 0x3c,
  0x88, 0xc4, 0x8b, 0x3c, 0x78, 0x6d, 0x96, 0x3c, 0xea, 0x78, 0x22, 0xbd,
  0x00, 0x1c, 0x34, 0x39, 0x94, 0xf0, 0x8f, 0xbc, 0x14, 0xb1, 0x47, 0xbd,
  0x2c, 0x82, 0x4d, 0xbd, 0x3c, 0x98, 0xf7, 0x3d, 0x74, 0xc0, 0x47, 0xbd,
  0x18, 0xd0, 0x9a, 0xbc, 0xba, 0xfc, 0x28, 0xbd, 0x30, 0x4d, 0x6e, 0x3d,
  0x18, 0x40, 0xcc, 0xbc, 0x3e, 0x80, 0xf7, 0x3d, 0xf0, 0x03, 0xc8, 0x3d,
  0xa6, 0x30, 0xba, 0x3d, 0x08, 0x76, 0xaf, 0x3d, 0x96, 0xcd, 0x9b, 0x3d,
  0x75, 0xd7, 0x00, 0xbe, 0xae, 0x34, 0xae, 0x3d, 0xfc, 0x77, 0x66, 0xbd,
  0x44, 0x74, 0x16, 0x3d, 0x1a, 0x09, 0xee, 0xbd, 0x48, 0x9d, 0x24, 0x3d,
  0xc6, 0xf3, 0xc6, 0x3d, 0x48, 0x32, 0xa2, 0x3c, 0x7c, 0x1b, 0xb4, 0x3d,
  0x30, 0x8d, 0x23, 0x3d, 0x74, 0xcb, 0xe7, 0xbd, 0x5e, 0x06, 0x42, 0xbd,
  0x60, 0x11, 0x84, 0x3b, 0x98, 0xc0, 0xec, 0xbd, 0xcc, 0xcd, 0x71, 0x3d,
  0x1c, 0x8b, 0x2e, 0xbd, 0x02, 0x79, 0xa0, 0x3d, 0x82, 0xd5, 0xf7, 0x3d,
  0xb0, 0xab, 0x57, 0x3d, 0xd8, 0x38, 0x6b, 0x3d, 0x80, 0x77, 0x6b, 0x3c,
  0xb9, 0xb7, 0xea, 0xbd, 0x50, 0x01, 0x09, 0x3d, 0x98, 0x3e, 0x0f, 0x3d,
  0x48, 0x08, 0x66, 0x3d, 0xb2, 0x3a, 0xfe, 0x3d, 0xdc, 0xf8, 0xc5, 0xbd,
  0x88, 0x38, 0x5b, 0xbc, 0x7a, 0xba, 0xc9, 0x3d, 0x6c, 0x99, 0xd4, 0xbd,
  0xde, 0x45, 0x86, 0xbd, 0xa8, 0x06, 0x88, 0xbc, 0x18, 0x8a, 0xa1, 0x3c,
  0xd0, 0xe4, 0x41, 0xbd, 0x40, 0x0f, 0x8c, 0xbc, 0xa4, 0xdc, 0xd9, 0xbd,
  0x89, 0x3d, 0xbc, 0xbd, 0x1c, 0x7f, 0x3d, 0x3d, 0x90, 0x86, 0x88, 0x3d,
  0xb0, 0x6f, 0x05, 0x3d, 0xc0, 0x9b, 0x0c, 0x3b, 0xb0, 0xc5, 0xeb, 0xbc,
  0x4e, 0x3b, 0x80, 0xbd, 0x0e, 0x3a, 0xac, 0x3d, 0xd0, 0xaa, 0xa3, 0xbd,
  0xc6, 0xd8, 0x8b, 0x3d, 0x90, 0xf6, 0xdf, 0xbc, 0x4a, 0x04, 0xf4, 0xbd,
  0x3e, 0xe5, 0xa6, 0x3d, 0xd4, 0xe3, 0xb9, 0x3d, 0x28, 0x88, 0x7e, 0xbc,
  0x74, 0xdb, 0xad, 0xbd, 0x52, 0x3e, 0x7d, 0xbd, 0x34, 0xa6, 0x24, 0xbd,
  0x5c, 0x02, 0xf1, 0xbd, 0x32, 0x3f, 0xb3, 0xbd, 0x00, 0x5b, 0x24, 0x3b,
  0x42, 0x78, 0xfd, 0x3d, 0x36, 0x1a, 0xf2, 0xbd, 0xe0, 0x98, 0x8e, 0x3d,
  0xe0, 0x73, 0x48, 0xbd, 0x64, 0x39, 0x22, 0x3d, 0x80, 0x26, 0x92, 0x3b,
  0xe0, 0x84, 0x71, 0x3c, 0x9e, 0xe1, 0x60, 0xbd, 0x56, 0xb1, 0x96, 0xbd,
  0xa8, 0x7b, 0xaa, 0x3c, 0x70, 0x64, 0x0b, 0x3c, 0x28, 0x0c, 0xed, 0xbd,
  0x20, 0x04, 0xb4, 0xbc, 0x2c, 0xbc, 0x18, 0xbd, 0x2c, 0x83, 0xb4, 0x3d,
  0x8e, 0x20, 0xa1, 0x3d, 0xfc, 0x66, 0xc1, 0x3d, 0xfa, 0x42, 0xc3, 0xbd,
  0xa8, 0x41, 0x65, 0xbc, 0x55, 0xb6, 0xf5, 0xbd, 0x48, 0x20, 0xb2, 0x3d,
  0x28, 0xd5, 0x81, 0x3d, 0x88, 0xed, 0x23, 0x3d, 0x7c, 0x19, 0xee, 0xbc,
  0x00, 0xf6, 0xfd, 0xba, 0x7e, 0x3e, 0x67, 0xbd, 0x08, 0xe9, 0xc8, 0x3d,
  0x58, 0x6c, 0xe9, 0x3c, 0x68, 0x07, 0x7f, 0xbc, 0xa0, 0x3d, 0xbe, 0xbd,
  0xc2, 0xd2, 0x8d, 0xbd, 0x44, 0x84, 0xcd, 0xbc, 0x3f, 0x46, 0xba, 0xbd,
  0x64, 0xaf, 0xbc, 0xbd, 0xc6, 0xc1, 0x27, 0xbd, 0xac, 0x34, 0xdc, 0x3d,
  0x34, 0x77, 0xb5, 0xbd, 0x08, 0xe6, 0x8c, 0xbc, 0x88, 0xb2, 0xc4, 0x3c,
  0x03, 0xa2, 0xe1, 0xbd, 0x00, 0x96, 0xa5, 0xba, 0xa0, 0xb6, 0xbd, 0x3c,
  0xeb, 0xe6, 0xed, 0xbd, 0xf8, 0x60, 0x45, 0x3d, 0x16, 0xe3, 0x8f, 0xbd,
  0xc0, 0x74, 0x53, 0x3b, 0x80, 0x10, 0xf2, 0x3a, 0xf0, 0x14, 0xa9, 0xbc,
  0xa0, 0xe3, 0xd3, 0xbd, 0x24, 0xd6, 0x36, 0xbd, 0x84, 0x5b, 0xb2, 0x3d,
  0xe0, 0x44, 0xdd, 0x3b, 0x50, 0x73, 0x05, 0x3c, 0xb0, 0xd7, 0xaf, 0xbb,
  0x02, 0x1b, 0x80, 0xbd, 0x50, 0x13, 0x19, 0x3c, 0xa5, 0x26, 0xb6, 0xbd,
  0xbe, 0xd3, 0xc8, 0x3d, 0xe0, 0xfb, 0xc7, 0xbc, 0x03, 0x86, 0xf7, 0xbd,
  0x48, 0xe6, 0xd5, 0x3d, 0x46, 0xb5, 0xa0, 0xbd, 0x4c, 0x2e, 0x98, 0x3d,
  0x9c, 0x33, 0x79, 0xbd, 0x00, 0xef, 0x8b, 0xbd, 0xd0, 0x22, 0xab, 0xbb,
  0xd8, 0xf3, 0xd6, 0x3c, 0x2f, 0x26, 0x03, 0x3e, 0x58, 0xaf, 0xb6, 0x3c,
  0xee, 0x41, 0xcf, 0xbd, 0x5d, 0x81, 0x01, 0x3e, 0x2c, 0xc5, 0xa3, 0x3d,
  0x00, 0xf5, 0xca, 0x3a, 0x20, 0x2e, 0xb5, 0xbc, 0x10, 0x7a, 0xd9, 0xbb,
  0xc0, 0x51, 0x70, 0x3c, 0x90, 0x04, 0x84, 0x3c, 0xec, 0x8c, 0x39, 0x3d,
  0x12, 0xe0, 0xab, 0x3d, 0xa8, 0xcc, 0xef, 0x3d, 0x80, 0xc0, 0x32, 0x3d,
  0x8d, 0xea, 0x01, 0xbe, 0x6c, 0x0c, 0xfd, 0xbc, 0xda, 0x8c, 0x81, 0xbd,
  0x9c, 0x62, 0xa6, 0xbd, 0x38, 0x2d, 0x59, 0xbc, 0xa8, 0xbe, 0x95, 0xbd,
  0xee, 0xdf, 0xf2, 0xbd, 0xea, 0xbb, 0xfe, 0x3d, 0xe0, 0xe9, 0xdd, 0x3b,
  0xb8, 0x41, 0xc3, 0xbd, 0x84, 0x69, 0x9d, 0xbc, 0x4c, 0x16, 0xda, 0x3d,
  0xc8, 0x65, 0xc8, 0x3c, 0x62, 0x4d, 0xba, 0xbd, 0xf6, 0xbd, 0x94, 0x3d,
  0xf4, 0x2b, 0x75, 0x3d, 0x3a, 0xff, 0xce, 0xbd, 0x30, 0x1c, 0xc6, 0x3d,
  0xa4, 0xbb, 0xbd, 0xbc, 0x82, 0x5e, 0xf1, 0x3d, 0x50, 0xc8, 0x8c, 0xbc,
  0x90, 0xb7, 0xc8, 0xbb, 0xca, 0x79, 0x8e, 0xbd, 0x5c, 0xda, 0x81, 0x3d,
  0xb8, 0x8c, 0xf4, 0xbd, 0x80, 0x4c, 0x47, 0x3b, 0x50, 0x80, 0x86, 0x3d,
  0x00, 0xb1, 0x91, 0xba, 0x24, 0x91, 0xb4, 0xbd, 0x5c, 0xc2, 0x1e, 0x3d,
  0xea, 0x34, 0x96, 0x3d, 0x2e, 0xa3, 0x1c, 0xbd, 0x00, 0x5b, 0x53, 0xba,
  0x10, 0x67, 0xe1, 0xbd, 0x40, 0x2d, 0xad, 0xbc, 0xe1, 0xea, 0x02, 0x3e,
  0x18, 0x3f, 0x32, 0x3d, 0x26, 0xc3, 0x0b, 0xbd, 0x3e, 0x77, 0x9b, 0xbd,
  0x2a, 0x0e, 0x90, 0x3d, 0x16, 0xf6, 0x50, 0xbd, 0x4c, 0x9f, 0x2a, 0xbd,
  0x8c, 0xe8, 0x04, 0x3d, 0x21, 0x37, 0xad, 0xbd, 0xea, 0x3f, 0xc3, 0xbd,
  0x52, 0x76, 0xbf, 0xbd, 0x5c, 0x22, 0xd7, 0x3d, 0xc0, 0x25, 0xc5, 0x3d,
  0x78, 0x01, 0x6c, 0x3d, 0x64, 0x7b, 0xf1, 0xbc, 0x60, 0x73, 0xb4, 0xbd,
  0xbc, 0x67, 0x43, 0xbd, 0xaa, 0x64, 0x7b, 0xbd, 0x20, 0x4e, 0xba, 0x3b,
  0x38, 0x55, 0xe3, 0x3d, 0xd2, 0xc6, 0xee, 0x3d, 0xc4, 0xa8, 0x30, 0x3d,
  0xa0, 0xd5, 0xe1, 0x3c, 0x26, 0xff, 0xff, 0xff, 0x04, 0x00, 0x00, 0x00,
  0x08, 0x00, 0x00, 0x00, 0x7f, 0x38, 0xcd, 0xbc, 0x7e, 0x38, 0xcd, 0x3c,
  0x3a, 0xff, 0xff, 0xff, 0x04, 0x00, 0x00, 0x00, 0x10, 0x00, 0x00, 0x00,
  0xfb, 0xf2, 0x39, 0xbf, 0x58, 0x8c, 0xf5, 0xbe, 0x83, 0xca, 0x05, 0xbf,
  0xb0, 0xfb, 0x42, 0x3f, 0x56, 0xff, 0xff, 0xff, 0x04, 0x00, 0x00, 0x00,
  0x08, 0x00, 0x00, 0x00, 0x4f, 0x89, 0x9a, 0x3f, 0x2e, 0xbb, 0x52, 0x3f,
  0xbc, 0xfb, 0xff, 0xff, 0xc0, 0xfb, 0xff, 0xff, 0x0f, 0x00, 0x00, 0x00,
  0x4d, 0x4c, 0x49, 0x52, 0x20, 0x43, 0x6f, 0x6e, 0x76, 0x65, 0x72, 0x74,
  0x65, 0x64, 0x2e, 0x00, 0x01, 0x00, 0x00, 0x00, 0x14, 0x00, 0x00, 0x00,
  0x00, 0x00, 0x0e, 0x00, 0x18, 0x00, 0x14, 0x00, 0x10, 0x00, 0x0c, 0x00,
  0x08, 0x00, 0x04, 0x00, 0x0e, 0x00, 0x00, 0x00, 0x14, 0x00, 0x00, 0x00,
  0x1c, 0x00, 0x00, 0x00, 0x24, 0x01, 0x00, 0x00, 0x28, 0x01, 0x00, 0x00,
  0x2c, 0x01, 0x00, 0x00, 0x04, 0x00, 0x00, 0x00, 0x6d, 0x61, 0x69, 0x6e,
  0x00, 0x00, 0x00, 0x00, 0x04, 0x00, 0x00, 0x00, 0xcc, 0x00, 0x00, 0x00,
  0x84, 0x00, 0x00, 0x00, 0x50, 0x00, 0x00, 0x00, 0x14, 0x00, 0x00, 0x00,
  0x00, 0x00, 0x0e, 0x00, 0x1a, 0x00, 0x14, 0x00, 0x10, 0x00, 0x0c, 0x00,
  0x0b, 0x00, 0x04, 0x00, 0x0e, 0x00, 0x00, 0x00, 0x1c, 0x00, 0x00, 0x00,
  0x00, 0x00, 0x00, 0x09, 0x1c, 0x00, 0x00, 0x00, 0x20, 0x00, 0x00, 0x00,
  0x01, 0x00, 0x00, 0x00, 0x00, 0x00, 0x06, 0x00, 0x08, 0x00, 0x04, 0x00,
  0x06, 0x00, 0x00, 0x00, 0x00, 0x00, 0x80, 0x3f, 0x01, 0x00, 0x00, 0x00,
  0x08, 0x00, 0x00, 0x00, 0x01, 0x00, 0x00, 0x00, 0x07, 0x00, 0x00, 0x00,
  0x9a, 0xff, 0xff, 0xff, 0x10, 0x00, 0x00, 0x00, 0x00, 0x00, 0x00, 0x08,
  0x0c, 0x00, 0x00, 0x00, 0x10, 0x00, 0x00, 0x00, 0x84, 0xfc, 0xff, 0xff,
  0x01, 0x00, 0x00, 0x00, 0x07, 0x00, 0x00, 0x00, 0x03, 0x00, 0x00, 0x00,
  0x06, 0x00, 0x00, 0x00, 0x01, 0x00, 0x00, 0x00, 0x03, 0x00, 0x00, 0x00,
  0xca, 0xff, 0xff, 0xff, 0x10, 0x00, 0x00, 0x00, 0x00, 0x00, 0x00, 0x08,
  0x10, 0x00, 0x00, 0x00, 0x14, 0x00, 0x00, 0x00, 0xba, 0xff, 0xff, 0xff,
  0x00, 0x00, 0x00, 0x01, 0x01, 0x00, 0x00, 0x00, 0x06, 0x00, 0x00, 0x00,
  0x03, 0x00, 0x00, 0x00, 0x05, 0x00, 0x00, 0x00, 0x02, 0x00, 0x00, 0x00,
  0xff, 0xff, 0xff, 0xff, 0x00, 0x00, 0x0e, 0x00, 0x16, 0x00, 0x00, 0x00,
  0x10, 0x00, 0x0c, 0x00, 0x0b, 0x00, 0x04, 0x00, 0x0e, 0x00, 0x00, 0x00,
  0x18, 0x00, 0x00, 0x00, 0x00, 0x00, 0x00, 0x08, 0x18, 0x00, 0x00, 0x00,
  0x1c, 0x00, 0x00, 0x00, 0x00, 0x00, 0x06, 0x00, 0x08, 0x00, 0x07, 0x00,
  0x06, 0x00, 0x00, 0x00, 0x00, 0x00, 0x00, 0x01, 0x01, 0x00, 0x00, 0x00,
  0x05, 0x00, 0x00, 0x00, 0x03, 0x00, 0x00, 0x00, 0x00, 0x00, 0x00, 0x00,
  0x04, 0x00, 0x00, 0x00, 0xff, 0xff, 0xff, 0xff, 0x01, 0x00, 0x00, 0x00,
  0x08, 0x00, 0x00, 0x00, 0x01, 0x00, 0x00, 0x00, 0x00, 0x00, 0x00, 0x00,
  0x09, 0x00, 0x00, 0x00, 0xb4, 0x02, 0x00, 0x00, 0x5c, 0x02, 0x00, 0x00,
  0x1c, 0x02, 0x00, 0x00, 0xe0, 0x01, 0x00, 0x00, 0x94, 0x01, 0x00, 0x00,
  0x2c, 0x01, 0x00, 0x00, 0xc0, 0x00, 0x00, 0x00, 0x50, 0x00, 0x00, 0x00,
  0x04, 0x00, 0x00, 0x00, 0x86, 0xfd, 0xff, 0xff, 0x00, 0x00, 0x00, 0x01,
  0x10, 0x00, 0x00, 0x00, 0x10, 0x00, 0x00, 0x00, 0x09, 0x00, 0x00, 0x00,
  0x28, 0x00, 0x00, 0x00, 0x70, 0xfd, 0xff, 0xff, 0x1b, 0x00, 0x00, 0x00,
  0x53, 0x74, 0x61, 0x74, 0x65, 0x66, 0x75, 0x6c, 0x50, 0x61, 0x72, 0x74,
  0x69, 0x74, 0x69, 0x6f, 0x6e, 0x65, 0x64, 0x43, 0x61, 0x6c, 0x6c, 0x5f,
  0x31, 0x3a, 0x30, 0x00, 0x02, 0x00, 0x00, 0x00, 0x01, 0x00, 0x00, 0x00,
  0x02, 0x00, 0x00, 0x00, 0xce, 0xfd, 0xff, 0xff, 0x00, 0x00, 0x00, 0x01,
  0x10, 0x00, 0x00, 0x00, 0x10, 0x00, 0x00, 0x00, 0x08, 0x00, 0x00, 0x00,
  0x4c, 0x00, 0x00, 0x00, 0xb8, 0xfd, 0xff, 0xff, 0x3c, 0x00, 0x00, 0x00,
  0x73, 0x65, 0x71, 0x75, 0x65, 0x6e, 0x74, 0x69, 0x61, 0x6c, 0x5f, 0x31,
  0x2f, 0x64, 0x65, 0x6e, 0x73, 0x65, 0x5f, 0x32, 0x5f, 0x31, 0x2f, 0x4d,
  0x61, 0x74, 0x4d, 0x75, 0x6c, 0x3b, 0x73, 0x65, 0x71, 0x75, 0x65, 0x6e,
  0x74, 0x69, 0x61, 0x6c, 0x5f, 0x31, 0x2f, 0x64, 0x65, 0x6e, 0x73, 0x65,
  0x5f, 0x32, 0x5f, 0x31, 0x2f, 0x42, 0x69, 0x61, 0x73, 0x41, 0x64, 0x64,
  0x00, 0x00, 0x00, 0x00, 0x02, 0x00, 0x00, 0x00, 0x01, 0x00, 0x00, 0x00,
  0x02, 0x00, 0x00, 0x00, 0x3a, 0xfe, 0xff, 0xff, 0x00, 0x00, 0x00, 0x01,
  0x10, 0x00, 0x00, 0x00, 0x10, 0x00, 0x00, 0x00, 0x07, 0x00, 0x00, 0x00,
  0x48, 0x00, 0x00, 0x00, 0x24, 0xfe, 0xff, 0xff, 0x39, 0x00, 0x00, 0x00,
  0x73, 0x65, 0x71, 0x75, 0x65, 0x6e, 0x74, 0x69, 0x61, 0x6c, 0x5f, 0x31,
  0x2f, 0x64, 0x65, 0x6e, 0x73, 0x65, 0x5f, 0x31, 0x5f, 0x32, 0x2f, 0x4d,
  0x61, 0x74, 0x4d, 0x75, 0x6c, 0x3b, 0x73, 0x65, 0x71, 0x75, 0x65, 0x6e,
  0x74, 0x69, 0x61, 0x6c, 0x5f, 0x31, 0x2f, 0x64, 0x65, 0x6e, 0x73, 0x65,
  0x5f, 0x31, 0x5f, 0x32, 0x2f, 0x52, 0x65, 0x6c, 0x75, 0x00, 0x00, 0x00,
  0x02, 0x00, 0x00, 0x00, 0x01, 0x00, 0x00, 0x00, 0x01, 0x00, 0x00, 0x00,
  0xa2, 0xfe, 0xff, 0xff, 0x00, 0x00, 0x00, 0x01, 0x10, 0x00, 0x00, 0x00,
  0x10, 0x00, 0x00, 0x00, 0x06, 0x00, 0x00, 0x00, 0x44, 0x00, 0x00, 0x00,
  0x8c, 0xfe, 0xff, 0xff, 0x35, 0x00, 0x00, 0x00, 0x73, 0x65, 0x71, 0x75,
  0x65, 0x6e, 0x74, 0x69, 0x61, 0x6c, 0x5f, 0x31, 0x2f, 0x64, 0x65, 0x6e,
  0x73, 0x65, 0x5f, 0x31, 0x2f, 0x4d, 0x61, 0x74, 0x4d, 0x75, 0x6c, 0x3b,
  0x73, 0x65, 0x71, 0x75, 0x65, 0x6e, 0x74, 0x69, 0x61, 0x6c, 0x5f, 0x31,
  0x2f, 0x64, 0x65, 0x6e, 0x73, 0x65, 0x5f, 0x31, 0x2f, 0x52, 0x65, 0x6c,
  0x75, 0x00, 0x00, 0x00, 0x02, 0x00, 0x00, 0x00, 0x01, 0x00, 0x00, 0x00,
  0x04, 0x00, 0x00, 0x00, 0x06, 0xff, 0xff, 0xff, 0x00, 0x00, 0x00, 0x01,
  0x10, 0x00, 0x00, 0x00, 0x10, 0x00, 0x00, 0x00, 0x05, 0x00, 0x00, 0x00,
  0x28, 0x00, 0x00, 0x00, 0xf0, 0xfe, 0xff, 0xff, 0x1b, 0x00, 0x00, 0x00,
  0x73, 0x65, 0x71, 0x75, 0x65, 0x6e, 0x74, 0x69, 0x61, 0x6c, 0x5f, 0x31,
  0x2f, 0x64, 0x65, 0x6e, 0x73, 0x65, 0x5f, 0x31, 0x2f, 0x4d, 0x61, 0x74,
  0x4d, 0x75, 0x6c, 0x00, 0x02, 0x00, 0x00, 0x00, 0x04, 0x00, 0x00, 0x00,
  0x65, 0x01, 0x00, 0x00, 0x4e, 0xff, 0xff, 0xff, 0x00, 0x00, 0x00, 0x01,
  0x10, 0x00, 0x00, 0x00, 0x10, 0x00, 0x00, 0x00, 0x04, 0x00, 0x00, 0x00,
  0x1c, 0x00, 0x00, 0x00, 0x38, 0xff, 0xff, 0xff, 0x0f, 0x00, 0x00, 0x00,
  0x61, 0x72, 0x69, 0x74, 0x68, 0x2e, 0x63, 0x6f, 0x6e, 0x73, 0x74, 0x61,
  0x6e, 0x74, 0x32, 0x00, 0x01, 0x00, 0x00, 0x00, 0x02, 0x00, 0x00, 0x00,
  0x86, 0xff, 0xff, 0xff, 0x00, 0x00, 0x00, 0x01, 0x10, 0x00, 0x00, 0x00,
  0x10, 0x00, 0x00, 0x00, 0x03, 0x00, 0x00, 0x00, 0x1c, 0x00, 0x00, 0x00,
  0x70, 0xff, 0xff, 0xff, 0x0f, 0x00, 0x00, 0x00, 0x61, 0x72, 0x69, 0x74,
  0x68, 0x2e, 0x63, 0x6f, 0x6e, 0x73, 0x74, 0x61, 0x6e, 0x74, 0x31, 0x00,
  0x02, 0x00, 0x00, 0x00, 0x01, 0x00, 0x00, 0x00, 0x04, 0x00, 0x00, 0x00,
  0xc2, 0xff, 0xff, 0xff, 0x00, 0x00, 0x00, 0x01, 0x10, 0x00, 0x00, 0x00,
  0x10, 0x00, 0x00, 0x00, 0x02, 0x00, 0x00, 0x00, 0x1c, 0x00, 0x00, 0x00,
  0xac, 0xff, 0xff, 0xff, 0x0e, 0x00, 0x00, 0x00, 0x61, 0x72, 0x69, 0x74,
  0x68, 0x2e, 0x63, 0x6f, 0x6e, 0x73, 0x74, 0x61, 0x6e, 0x74, 0x00, 0x00,
  0x02, 0x00, 0x00, 0x00, 0x02, 0x00, 0x00, 0x00, 0x01, 0x00, 0x00, 0x00,
  0x00, 0x00, 0x16, 0x00, 0x18, 0x00, 0x14, 0x00, 0x00, 0x00, 0x10, 0x00,
  0x0c, 0x00, 0x08, 0x00, 0x00, 0x00, 0x00, 0x00, 0x00, 0x00, 0x07, 0x00,
  0x16, 0x00, 0x00, 0x00, 0x00, 0x00, 0x00, 0x01, 0x14, 0x00, 0x00, 0x00,
  0x14, 0x00, 0x00, 0x00, 0x01, 0x00, 0x00, 0x00, 0x30, 0x00, 0x00, 0x00,
  0x04, 0x00, 0x04, 0x00, 0x04, 0x00, 0x00, 0x00, 0x1e, 0x00, 0x00, 0x00,
  0x73, 0x65, 0x72, 0x76, 0x69, 0x6e, 0x67, 0x5f, 0x64, 0x65, 0x66, 0x61,
  0x75, 0x6c, 0x74, 0x5f, 0x6b, 0x65, 0x72, 0x61, 0x73, 0x5f, 0x74, 0x65,
  0x6e, 0x73, 0x6f, 0x72, 0x3a, 0x30, 0x00, 0x00, 0x02, 0x00, 0x00, 0x00,
  0x01, 0x00, 0x00, 0x00, 0x65, 0x01, 0x00, 0x00, 0x02, 0x00, 0x00, 0x00,
  0x20, 0x00, 0x00, 0x00, 0x04, 0x00, 0x00, 0x00, 0xf4, 0xff, 0xff, 0xff,
  0x19, 0x00, 0x00, 0x00, 0x00, 0x00, 0x00, 0x19, 0x0c, 0x00, 0x0c, 0x00,
  0x0b, 0x00, 0x00, 0x00, 0x00, 0x00, 0x04, 0x00, 0x0c, 0x00, 0x00, 0x00,
  0x09, 0x00, 0x00, 0x00, 0x00, 0x00, 0x00, 0x09
};
